{
  "special_tokens": [
    "[PAD]",
    "[UNK]",
    "[CLS]",
    "[SEP]"
  ],
  "merges": [
    [
      "e",
      "</w>"
    ],
    [
      "s",
      "</w>"
    ],
    [
      "r",
      "</w>"
    ],
    [
      "i",
      "n"
    ],
    [
      "y",
      "</w>"
    ],
    [
      "a",
      "t"
    ],
    [
      "a",
      "n"
    ],
    [
      "h",
      "e"
    ],
    [
      "d",
      "</w>"
    ],
    [
      "o",
      "</w>"
    ],
    [
      "t",
      "h"
    ],
    [
      "o",
      "o"
    ],
    [
      "f",
      "o"
    ],
    [
      "fo",
      "r</w>"
    ],
    [
      "at",
      "</w>"
    ],
    [
      "in",
      "g"
    ],
    [
      "s",
      "e"
    ],
    [
      "ing",
      "</w>"
    ],
    [
      "p",
      "l"
    ],
    [
      "oo",
      "k"
    ],
    [
      "h",
      "o"
    ],
    [
      "i",
      "</w>"
    ],
    [
      "i",
      "s</w>"
    ],
    [
      "m",
      "y</w>"
    ],
    [
      "in",
      "</w>"
    ],
    [
      "s",
      "ho"
    ],
    [
      "c",
      "k"
    ],
    [
      "sho",
      "w"
    ],
    [
      "b",
      "ook"
    ],
    [
      "e",
      "r</w>"
    ],
    [
      "t",
      "i"
    ],
    [
      "u",
      "n"
    ],
    [
      "a",
      "l"
    ],
    [
      "r",
      "e"
    ],
    [
      "a",
      "y</w>"
    ],
    [
      "a",
      "r"
    ],
    [
      "o",
      "n"
    ],
    [
      "m",
      "e</w>"
    ],
    [
      "t",
      "</w>"
    ],
    [
      "y",
      "o</w>"
    ],
    [
      "l",
      "</w>"
    ],
    [
      "p",
      "</w>"
    ],
    [
      "m",
      "</w>"
    ],
    [
      "show",
      "</w>"
    ],
    [
      "an",
      "</w>"
    ],
    [
      "a",
      "r</w>"
    ],
    [
      "th",
      "e</w>"
    ],
    [
      "he",
      "y</w>"
    ],
    [
      "t",
      "o"
    ],
    [
      "pl",
      "s</w>"
    ],
    [
      "e",
      "n"
    ],
    [
      "n",
      "e"
    ],
    [
      "book",
      "ing</w>"
    ],
    [
      "m",
      "o"
    ],
    [
      "t",
      "e"
    ],
    [
      "u",
      "m</w>"
    ],
    [
      "v",
      "i"
    ],
    [
      "m",
      "a"
    ],
    [
      "ck",
      "</w>"
    ],
    [
      "e",
      "t"
    ],
    [
      "r",
      "e</w>"
    ],
    [
      "he",
      "re</w>"
    ],
    [
      "ti",
      "ck"
    ],
    [
      "d",
      "ay</w>"
    ],
    [
      "v",
      "e</w>"
    ],
    [
      "e",
      "s</w>"
    ],
    [
      "3",
      "</w>"
    ],
    [
      "x",
      "</w>"
    ],
    [
      "v",
      "at"
    ],
    [
      "i",
      "on"
    ],
    [
      "u",
      "</w>"
    ],
    [
      "i",
      "ck</w>"
    ],
    [
      "a",
      "</w>"
    ],
    [
      "th",
      "an"
    ],
    [
      "k",
      "s</w>"
    ],
    [
      "re",
      "se"
    ],
    [
      "et",
      "s</w>"
    ],
    [
      "t",
      "here</w>"
    ],
    [
      "to",
      "day</w>"
    ],
    [
      "s",
      "e</w>"
    ],
    [
      "b",
      "y"
    ],
    [
      "by",
      "e</w>"
    ],
    [
      "rese",
      "r"
    ],
    [
      "mo",
      "vi"
    ],
    [
      "than",
      "ks</w>"
    ],
    [
      "tick",
      "ets</w>"
    ],
    [
      "o",
      "f"
    ],
    [
      "of",
      "</w>"
    ],
    [
      "m",
      "an</w>"
    ],
    [
      "a",
      "d</w>"
    ],
    [
      "e",
      "d</w>"
    ],
    [
      "l",
      "l"
    ],
    [
      "r",
      "a"
    ],
    [
      "j",
      "a"
    ],
    [
      "at",
      "s</w>"
    ],
    [
      "e",
      "l</w>"
    ],
    [
      "book",
      "</w>"
    ],
    [
      "al",
      "l</w>"
    ],
    [
      "c",
      "el</w>"
    ],
    [
      "un",
      "d</w>"
    ],
    [
      "se",
      "ats</w>"
    ],
    [
      "c",
      "an"
    ],
    [
      "c",
      "on"
    ],
    [
      "can",
      "cel</w>"
    ],
    [
      "5",
      "</w>"
    ],
    [
      "o",
      "l"
    ],
    [
      "un",
      "e</w>"
    ],
    [
      "w",
      "ay</w>"
    ],
    [
      "1",
      "</w>"
    ],
    [
      "th",
      "is</w>"
    ],
    [
      "he",
      "n"
    ],
    [
      "w",
      "an"
    ],
    [
      "wan",
      "t</w>"
    ],
    [
      "vat",
      "ion"
    ],
    [
      "vation",
      "</w>"
    ],
    [
      "h",
      "i</w>"
    ],
    [
      "n",
      "ing</w>"
    ],
    [
      "ar",
      "t</w>"
    ],
    [
      "c",
      "in"
    ],
    [
      "cin",
      "e"
    ],
    [
      "r",
      "o"
    ],
    [
      "a",
      "se</w>"
    ],
    [
      "reser",
      "vation</w>"
    ],
    [
      "6",
      "</w>"
    ],
    [
      "j",
      "</w>"
    ],
    [
      "e",
      "ase</w>"
    ],
    [
      "a",
      "i</w>"
    ],
    [
      "w",
      "h"
    ],
    [
      "wh",
      "at</w>"
    ],
    [
      "g",
      "oo"
    ],
    [
      "ne",
      "ed</w>"
    ],
    [
      "in",
      "te"
    ],
    [
      "inte",
      "r"
    ],
    [
      "ra",
      "j</w>"
    ],
    [
      "pl",
      "ease</w>"
    ],
    [
      "i",
      "e</w>"
    ],
    [
      "ne",
      "ar</w>"
    ],
    [
      "8",
      "</w>"
    ],
    [
      "l",
      "e"
    ],
    [
      "inter",
      "s"
    ],
    [
      "inters",
      "te"
    ],
    [
      "4",
      "</w>"
    ],
    [
      "c",
      "i"
    ],
    [
      "at",
      "er</w>"
    ],
    [
      "interste",
      "ll"
    ],
    [
      "b",
      "ie</w>"
    ],
    [
      "movi",
      "es</w>"
    ],
    [
      "d",
      "e"
    ],
    [
      "interstell",
      "ar</w>"
    ],
    [
      "w",
      "an</w>"
    ],
    [
      "ti",
      "m"
    ],
    [
      "ja",
      "wan</w>"
    ],
    [
      "m",
      "i"
    ],
    [
      "b",
      "ar"
    ],
    [
      "ma",
      "s</w>"
    ],
    [
      "s",
      "t"
    ],
    [
      "b",
      "ad</w>"
    ],
    [
      "se",
      "at</w>"
    ],
    [
      "ci",
      "t"
    ],
    [
      "cit",
      "y</w>"
    ],
    [
      "c",
      "en"
    ],
    [
      "cen",
      "t"
    ],
    [
      "u",
      "s</w>"
    ],
    [
      "e",
      "r"
    ],
    [
      "bar",
      "bie</w>"
    ],
    [
      "g",
      "i"
    ],
    [
      "gi",
      "ve</w>"
    ],
    [
      "to",
      "p</w>"
    ],
    [
      "g",
      "un"
    ],
    [
      "gun",
      "</w>"
    ],
    [
      "ma",
      "v"
    ],
    [
      "mav",
      "er"
    ],
    [
      "maver",
      "ick</w>"
    ],
    [
      "b",
      "at"
    ],
    [
      "bat",
      "man</w>"
    ],
    [
      "con",
      "y</w>"
    ],
    [
      "mo",
      "r"
    ],
    [
      "l",
      "ook"
    ],
    [
      "look",
      "</w>"
    ],
    [
      "u",
      "p</w>"
    ],
    [
      "d",
      "une</w>"
    ],
    [
      "p",
      "art</w>"
    ],
    [
      "t",
      "w"
    ],
    [
      "tw",
      "o</w>"
    ],
    [
      "2",
      "</w>"
    ],
    [
      "l",
      "i"
    ],
    [
      "ar",
      "o"
    ],
    [
      "aro",
      "und</w>"
    ],
    [
      "i",
      "m"
    ],
    [
      "b",
      "al"
    ],
    [
      "bal",
      "cony</w>"
    ],
    [
      "at",
      "'"
    ],
    [
      "at'",
      "s</w>"
    ],
    [
      "d",
      "ro"
    ],
    [
      "dro",
      "p</w>"
    ],
    [
      "o",
      "p"
    ],
    [
      "op",
      "p"
    ],
    [
      "he",
      "im"
    ],
    [
      "c",
      "an</w>"
    ],
    [
      "pl",
      "e</w>"
    ],
    [
      "cine",
      "mas</w>"
    ],
    [
      "li",
      "k"
    ],
    [
      "lik",
      "e</w>"
    ],
    [
      "ar",
      "e</w>"
    ],
    [
      "re",
      "c"
    ],
    [
      "rec",
      "l"
    ],
    [
      "opp",
      "en"
    ],
    [
      "oppen",
      "heim"
    ],
    [
      "k",
      "ol"
    ],
    [
      "kol",
      "k"
    ],
    [
      "w",
      "hen"
    ],
    [
      "when",
      "</w>"
    ],
    [
      "m",
      "an"
    ],
    [
      "g",
      "er</w>"
    ],
    [
      "th",
      "at's</w>"
    ],
    [
      "o",
      "ple</w>"
    ],
    [
      "f",
      "in"
    ],
    [
      "fin",
      "d</w>"
    ],
    [
      "r",
      "un"
    ],
    [
      "k",
      "al"
    ],
    [
      "s",
      "p"
    ],
    [
      "sp",
      "i"
    ],
    [
      "n",
      "o</w>"
    ],
    [
      "ho",
      "me</w>"
    ],
    [
      "recl",
      "in"
    ],
    [
      "reclin",
      "er</w>"
    ],
    [
      "le",
      "o</w>"
    ],
    [
      "oppenheim",
      "er</w>"
    ],
    [
      "ne",
      "x"
    ],
    [
      "w",
      "</w>"
    ],
    [
      "movi",
      "e</w>"
    ],
    [
      "show",
      "ing</w>"
    ],
    [
      "man",
      "d"
    ],
    [
      "i",
      "r</w>"
    ],
    [
      "p",
      "m</w>"
    ],
    [
      "run",
      "ning</w>"
    ],
    [
      "a",
      "1"
    ],
    [
      "2",
      "8"
    ],
    [
      "28",
      "9"
    ],
    [
      "289",
      "8</w>"
    ],
    [
      "al",
      "</w>"
    ],
    [
      "m",
      "all</w>"
    ],
    [
      "mand",
      "ir</w>"
    ],
    [
      "ti",
      "ger</w>"
    ],
    [
      "m",
      "ay</w>"
    ],
    [
      "m",
      "u"
    ],
    [
      "p",
      "e"
    ],
    [
      "en",
      "g"
    ],
    [
      "se",
      "s"
    ],
    [
      "ses",
      "s"
    ],
    [
      "c",
      "h"
    ],
    [
      "vi",
      "p</w>"
    ],
    [
      "kal",
      "k"
    ],
    [
      "kalk",
      "i</w>"
    ],
    [
      "spi",
      "d"
    ],
    [
      "spid",
      "er</w>"
    ],
    [
      "t",
      "o</w>"
    ],
    [
      "re",
      "f"
    ],
    [
      "an",
      "d</w>"
    ],
    [
      "kolk",
      "at"
    ],
    [
      "kolkat",
      "a</w>"
    ],
    [
      "0",
      "</w>"
    ],
    [
      "pe",
      "ople</w>"
    ],
    [
      "i",
      "ma"
    ],
    [
      "ima",
      "x</w>"
    ],
    [
      "u",
      "r"
    ],
    [
      "sess",
      "ion"
    ],
    [
      "session",
      "s</w>"
    ],
    [
      "c",
      "he"
    ],
    [
      "i",
      "p"
    ],
    [
      "a",
      "vat"
    ],
    [
      "avat",
      "ar</w>"
    ],
    [
      "ref",
      "und</w>"
    ],
    [
      "mu",
      "m"
    ],
    [
      "b",
      "eng"
    ],
    [
      "ur",
      "u</w>"
    ],
    [
      "w",
      "a"
    ],
    [
      "wa",
      "ve</w>"
    ],
    [
      "on",
      "</w>"
    ],
    [
      "ch",
      "oo"
    ],
    [
      "choo",
      "se</w>"
    ],
    [
      "goo",
      "d"
    ],
    [
      "che",
      "ck</w>"
    ],
    [
      "st",
      "at"
    ],
    [
      "he",
      "l"
    ],
    [
      "in",
      "o"
    ],
    [
      "ino",
      "x</w>"
    ],
    [
      "w",
      "ater</w>"
    ],
    [
      "mum",
      "b"
    ],
    [
      "mumb",
      "ai</w>"
    ],
    [
      "d",
      "et"
    ],
    [
      "beng",
      "al"
    ],
    [
      "bengal",
      "uru</w>"
    ],
    [
      "good",
      "bye</w>"
    ],
    [
      "stat",
      "us</w>"
    ],
    [
      "p",
      "ick</w>"
    ],
    [
      "l",
      "ar</w>"
    ],
    [
      "a",
      "y"
    ],
    [
      "7",
      "</w>"
    ],
    [
      "c",
      "3</w>"
    ],
    [
      "ja",
      "ip"
    ],
    [
      "jaip",
      "u"
    ],
    [
      "jaipu",
      "r</w>"
    ],
    [
      "c",
      "hen"
    ],
    [
      "cent",
      "er</w>"
    ],
    [
      "w",
      "here</w>"
    ],
    [
      "con",
      "f"
    ],
    [
      "r",
      "m"
    ],
    [
      "rm",
      "ed</w>"
    ],
    [
      "det",
      "a"
    ],
    [
      "i",
      "l"
    ],
    [
      "il",
      "s</w>"
    ],
    [
      "reser",
      "ve</w>"
    ],
    [
      "mi",
      "um</w>"
    ],
    [
      "de",
      "l"
    ],
    [
      "del",
      "hi</w>"
    ],
    [
      "show",
      "tim"
    ],
    [
      "showtim",
      "es</w>"
    ],
    [
      "he",
      "ll"
    ],
    [
      "hell",
      "o</w>"
    ],
    [
      "re",
      "g"
    ],
    [
      "pl",
      "ay"
    ],
    [
      "goo",
      "d</w>"
    ],
    [
      "chen",
      "n"
    ],
    [
      "e",
      "t</w>"
    ],
    [
      "conf",
      "i"
    ],
    [
      "confi",
      "rmed</w>"
    ],
    [
      "deta",
      "ils</w>"
    ],
    [
      "p",
      "re"
    ],
    [
      "pre",
      "mium</w>"
    ],
    [
      "se",
      "e</w>"
    ],
    [
      "y",
      "o"
    ],
    [
      "yo",
      "u</w>"
    ],
    [
      "h",
      "y"
    ],
    [
      "hy",
      "de"
    ],
    [
      "hyde",
      "ra"
    ],
    [
      "hydera",
      "bad</w>"
    ],
    [
      "reg",
      "u"
    ],
    [
      "play",
      "ing</w>"
    ],
    [
      "p",
      "une</w>"
    ],
    [
      "mor",
      "ning</w>"
    ],
    [
      "chenn",
      "ai</w>"
    ],
    [
      "tick",
      "et</w>"
    ],
    [
      "l",
      "u"
    ],
    [
      "lu",
      "x"
    ],
    [
      "lux",
      "e</w>"
    ],
    [
      "l",
      "ater</w>"
    ],
    [
      "a",
      "h"
    ],
    [
      "ah",
      "m"
    ],
    [
      "d",
      "a"
    ],
    [
      "da",
      "bad</w>"
    ],
    [
      "c",
      "4</w>"
    ],
    [
      "regu",
      "lar</w>"
    ],
    [
      "k",
      "</w>"
    ],
    [
      "te",
      "l"
    ],
    [
      "tel",
      "l</w>"
    ],
    [
      "?",
      "</w>"
    ],
    [
      "ahm",
      "e"
    ],
    [
      "ahme",
      "dabad</w>"
    ],
    [
      ",",
      "</w>"
    ],
    [
      "hel",
      "p</w>"
    ],
    [
      "b",
      "7</w>"
    ],
    [
      "b",
      "u"
    ],
    [
      "bu",
      "k</w>"
    ],
    [
      "q",
      "u"
    ],
    [
      "qu",
      "ick</w>"
    ],
    [
      "an",
      "y</w>"
    ],
    [
      "tim",
      "ing"
    ],
    [
      "timing",
      "s</w>"
    ],
    [
      "cine",
      "p"
    ],
    [
      "cent",
      "r"
    ],
    [
      "nex",
      "t</w>"
    ],
    [
      "d",
      "8</w>"
    ],
    [
      "a1",
      "0</w>"
    ],
    [
      "ro",
      "w</w>"
    ],
    [
      "e",
      "v"
    ],
    [
      "ev",
      "en"
    ],
    [
      "even",
      "ing</w>"
    ],
    [
      "n",
      "o"
    ],
    [
      "no",
      "w</w>"
    ],
    [
      "ti",
      "me</w>"
    ],
    [
      "d",
      "o"
    ],
    [
      "do",
      "es</w>"
    ],
    [
      "st",
      "art</w>"
    ],
    [
      ":",
      "</w>"
    ],
    [
      "centr",
      "al</w>"
    ],
    [
      "c",
      "ar"
    ],
    [
      "car",
      "n"
    ],
    [
      "v",
      "al</w>"
    ],
    [
      "cinep",
      "ol"
    ],
    [
      "cinepol",
      "is</w>"
    ],
    [
      "f",
      "r"
    ],
    [
      "fr",
      "i"
    ],
    [
      "fri",
      "day</w>"
    ],
    [
      "le",
      "c"
    ],
    [
      "lec",
      "t</w>"
    ],
    [
      "p",
      "v"
    ],
    [
      "pv",
      "r</w>"
    ],
    [
      "nex",
      "us</w>"
    ],
    [
      "to",
      "mor"
    ],
    [
      "tomor",
      "row</w>"
    ],
    [
      "g",
      "</w>"
    ],
    [
      "b",
      "1"
    ],
    [
      "b1",
      "2</w>"
    ],
    [
      "k",
      "o"
    ],
    [
      "ko",
      "c"
    ],
    [
      "a1",
      "1</w>"
    ],
    [
      "carn",
      "i"
    ],
    [
      "carni",
      "val</w>"
    ],
    [
      "mi",
      "raj</w>"
    ],
    [
      "w",
      "e"
    ],
    [
      "se",
      "lect</w>"
    ],
    [
      "2",
      "5</w>"
    ],
    [
      "th",
      "x</w>"
    ],
    [
      "koc",
      "hi</w>"
    ],
    [
      "1",
      "5</w>"
    ],
    [
      "we",
      "e"
    ],
    [
      "en",
      "d</w>"
    ],
    [
      "2",
      "d</w>"
    ],
    [
      "a",
      "m</w>"
    ],
    [
      "e",
      "15</w>"
    ],
    [
      "wee",
      "k"
    ],
    [
      "week",
      "end</w>"
    ],
    [
      "2",
      "6</w>"
    ],
    [
      "d",
      "ol"
    ],
    [
      "1",
      "1</w>"
    ],
    [
      "ti",
      "x</w>"
    ],
    [
      "4",
      "d"
    ],
    [
      "4d",
      "x</w>"
    ],
    [
      "dol",
      "b"
    ],
    [
      "dolb",
      "y</w>"
    ],
    [
      "3",
      "d</w>"
    ],
    [
      "3",
      "0</w>"
    ],
    [
      "c",
      "n"
    ],
    [
      "cn",
      "c"
    ],
    [
      "cnc",
      "l</w>"
    ],
    [
      "book",
      "i"
    ],
    [
      "booki",
      "g</w>"
    ],
    [
      "2",
      "7</w>"
    ],
    [
      "h",
      "t</w>"
    ],
    [
      "4",
      "5</w>"
    ],
    [
      "hel",
      "o</w>"
    ],
    [
      "mo",
      "v"
    ],
    [
      "t",
      "s</w>"
    ],
    [
      "t",
      "on"
    ],
    [
      "ton",
      "i"
    ],
    [
      "g",
      "ht</w>"
    ],
    [
      "z",
      "</w>"
    ],
    [
      "c",
      "a"
    ],
    [
      "b",
      "a"
    ],
    [
      "n",
      "g</w>"
    ],
    [
      "kolk",
      "a"
    ],
    [
      "1",
      "0</w>"
    ],
    [
      "h",
      "in"
    ],
    [
      "hin",
      "d"
    ],
    [
      "hind",
      "i</w>"
    ],
    [
      "c",
      "ne"
    ],
    [
      "cne",
      "mas</w>"
    ],
    [
      "toni",
      "ght</w>"
    ],
    [
      "pl",
      "z</w>"
    ],
    [
      "f",
      "re"
    ],
    [
      "fre",
      "n"
    ],
    [
      "fren",
      "ch"
    ],
    [
      "french",
      "</w>"
    ],
    [
      "ca",
      "cel</w>"
    ],
    [
      "t",
      "a"
    ],
    [
      "ta",
      "mi"
    ],
    [
      "tami",
      "l</w>"
    ],
    [
      "p",
      "ople</w>"
    ],
    [
      "ja",
      "an</w>"
    ],
    [
      "t",
      "ck"
    ],
    [
      "spi",
      "er</w>"
    ],
    [
      "t",
      "ger</w>"
    ],
    [
      "n",
      "r</w>"
    ],
    [
      "mov",
      "i</w>"
    ],
    [
      "eng",
      "li"
    ],
    [
      "engli",
      "s"
    ],
    [
      "englis",
      "h"
    ],
    [
      "english",
      "</w>"
    ],
    [
      "9",
      "</w>"
    ],
    [
      "mu",
      "vi"
    ],
    [
      "muvi",
      "es</w>"
    ],
    [
      "to",
      "ay</w>"
    ],
    [
      "ti",
      "c"
    ],
    [
      "tic",
      "ets</w>"
    ],
    [
      "m",
      "al"
    ],
    [
      "book",
      "ng</w>"
    ]
  ],
  "vocab": [
    "[PAD]",
    "[UNK]",
    "[CLS]",
    "[SEP]",
    ",",
    "1",
    "10",
    "11",
    "15",
    "2",
    "25",
    "26",
    "27",
    "2898",
    "2d",
    "3",
    "30",
    "3d",
    "4",
    "45",
    "4dx",
    "5",
    "6",
    "9",
    ":",
    "?",
    "a",
    "a10",
    "a11",
    "ad",
    "ahm",
    "ahmedabad",
    "ai",
    "al",
    "all",
    "am",
    "an",
    "and",
    "any",
    "ar",
    "are",
    "around",
    "ase",
    "at",
    "at's",
    "ats",
    "avatar",
    "ay",
    "b",
    "b12",
    "b7",
    "ba",
    "balcony",
    "bar",
    "barbie",
    "batman",
    "beng",
    "bengaluru",
    "bie",
    "book",
    "bookig",
    "booking",
    "bookng",
    "buk",
    "bye",
    "c",
    "c3",
    "c4",
    "ca",
    "cacel",
    "can",
    "cancel",
    "carn",
    "carnival",
    "cel",
    "center",
    "centr",
    "central",
    "che",
    "check",
    "chen",
    "chenn",
    "chennai",
    "choose",
    "ci",
    "cine",
    "cinemas",
    "cinep",
    "cinepolis",
    "city",
    "cncl",
    "cnemas",
    "conf",
    "confirmed",
    "cony",
    "d",
    "d8",
    "dabad",
    "day",
    "delhi",
    "det",
    "deta",
    "details",
    "does",
    "dol",
    "dolby",
    "drop",
    "dune",
    "e",
    "e15",
    "ease",
    "el",
    "end",
    "english",
    "er",
    "es",
    "et",
    "ets",
    "evening",
    "f",
    "find",
    "for",
    "french",
    "friday",
    "g",
    "ght",
    "give",
    "good",
    "goodbye",
    "gun",
    "h",
    "heim",
    "hel",
    "hello",
    "helo",
    "help",
    "hey",
    "hi",
    "hindi",
    "home",
    "ht",
    "hyderabad",
    "i",
    "ie",
    "ils",
    "im",
    "imax",
    "in",
    "ing",
    "inox",
    "inter",
    "interste",
    "interstell",
    "interstellar",
    "ip",
    "ir",
    "is",
    "j",
    "jaan",
    "jaipur",
    "jawan",
    "k",
    "kal",
    "kalki",
    "koc",
    "kochi",
    "kolk",
    "kolka",
    "kolkata",
    "ks",
    "l",
    "lar",
    "later",
    "lect",
    "leo",
    "like",
    "ll",
    "look",
    "luxe",
    "m",
    "mal",
    "mall",
    "man",
    "mand",
    "mandir",
    "mas",
    "maverick",
    "may",
    "me",
    "mi",
    "miraj",
    "mium",
    "mo",
    "mor",
    "morning",
    "mov",
    "movi",
    "movie",
    "movies",
    "mum",
    "mumbai",
    "muvies",
    "my",
    "n",
    "near",
    "need",
    "next",
    "nexus",
    "ng",
    "ning",
    "no",
    "now",
    "nr",
    "o",
    "of",
    "on",
    "ople",
    "opp",
    "oppenheim",
    "oppenheimer",
    "p",
    "part",
    "pe",
    "people",
    "pick",
    "pl",
    "play",
    "playing",
    "ple",
    "please",
    "pls",
    "plz",
    "pm",
    "pople",
    "premium",
    "pune",
    "pvr",
    "q",
    "quick",
    "r",
    "raj",
    "re",
    "recl",
    "recliner",
    "ref",
    "refund",
    "reg",
    "regu",
    "regular",
    "rese",
    "reser",
    "reservation",
    "reserve",
    "rmed",
    "row",
    "run",
    "running",
    "s",
    "se",
    "seat",
    "seats",
    "see",
    "select",
    "sess",
    "sessions",
    "sho",
    "show",
    "showing",
    "showtimes",
    "spider",
    "spier",
    "start",
    "stat",
    "status",
    "t",
    "tamil",
    "tck",
    "te",
    "tell",
    "tger",
    "th",
    "than",
    "thanks",
    "that's",
    "the",
    "there",
    "this",
    "thx",
    "ticets",
    "tick",
    "ticket",
    "tickets",
    "tiger",
    "tim",
    "time",
    "timings",
    "tix",
    "to",
    "toay",
    "today",
    "tomorrow",
    "toni",
    "tonight",
    "top",
    "ts",
    "two",
    "u",
    "um",
    "und",
    "up",
    "ur",
    "uru",
    "us",
    "v",
    "val",
    "vat",
    "vation",
    "vi",
    "vip",
    "w",
    "wan",
    "want",
    "water",
    "wave",
    "way",
    "we",
    "wee",
    "weekend",
    "what",
    "when",
    "where",
    "x",
    "y",
    "yo",
    "you",
    "z"
  ]
}